<unk>	0
<s>	0
</s>	0
32.	-1.31538
▁kernel	-1.44262
getprocaddress	-2.73068
er	-4.00946
heapalloc	-4.0116
▁us	-4.01286
▁	-4.33296
charnexta	-4.39866
user	-4.60259
criticalsection	-4.70842
ente	-4.773
rcriticalsection	-4.77354
-	-4.83554
getmodulehandlea	-5.13554
initializec	-5.15286
get	-5.1618
lcmapstringw	-5.18291
heapfree	-5.22365
heapsize	-5.25567
▁msvcrt	-5.3433
le	-5.34798
multibyte	-5.46438
towidechar	-5.46468
getfiletype	-5.49861
initialize	-5.50251
ecriticalsection	-5.50451
getstdhandle	-5.51055
riticalsection	-5.52942
loadlibrarya	-5.60132
_	-5.60626
ave	-5.61472
a	-5.62946
api	-5.65294
lea	-5.67649
e	-5.68856
v	-5.72627
getstartupinfoa	-5.85528
widechar	-5.86906
tomultibyte	-5.8691
loadstringa	-5.95554
multi	-5.97115
bytetowidechar	-5.97149
getcpinfo	-5.97599
.	-5.97747
.__	-5.98466
getversion	-5.98863
riticalsectionex	-6.01793
w	-6.08625
getstringtypew	-6.09075
charnextw	-6.09653
virtualalloc	-6.0981
getcommandlinea	-6.12918
heapcreate	-6.17677
getprocessheap	-6.19512
queryperformance	-6.22879
counter	-6.22926
getlocaleinfoa	-6.25557
getacp	-6.28164
▁ad	-6.28244
initterm	-6.28939
getmodulehandlew	-6.2904
l	-6.30631
virtualprotect	-6.34845
writefile	-6.36338
localalloc	-6.38072
sleep	-6.38133
._	-6.40591
tlsgetvalue	-6.41215
ge	-6.42012
win	-6.42833
ms	-6.43019
crt	-6.43923
p	-6.45735
currentthreadid	-6.46082
heaprealloc	-6.46341
initializ	-6.47835
wide	-6.51208
free	-6.51708
stringsw	-6.55835
chartomultibyte	-6.56264
set	-6.58842
exitprocess	-6.59671
ve	-6.60449
▁msvcr	-6.61425
modulefilenamea	-6.62322
__	-6.63352
sethandlecount	-6.64165
loadcursora	-6.64932
getversionexa	-6.6565
dexceptionfilter	-6.70871
nhandle	-6.70978
mul	-6.71506
tibytetowidechar	-6.71507
setu	-6.7281
av	-6.77653
runtime	-6.77852
tlssetvalue	-6.78135
wsprintf	-6.79223
process	-6.80146
orfeaturepresent	-6.83752
regopenkeyexw	-6.89106
is	-6.89162
closehandle	-6.93224
getlasterror	-6.95986
getenvironment	-7.00078
andspincount	-7.01597
wid	-7.04502
@	-7.05015
tlsalloc	-7.05196
echartomultibyte	-7.0544
currentprocessid	-7.08156
getsystem	-7.09674
gettickcount	-7.10053
getmainargs	-7.10578
environment	-7.13615
heap	-7.23102
1-1-0.	-7.23272
isbad	-7.24534
ironmentstringsw	-7.24871
loadicona	-7.24918
readfile	-7.25081
getcommandlinew	-7.28334
▁ole	-7.28721
1-1-0._	-7.29618
timeasfiletime	-7.32296
type	-7.3262
createfilew	-7.34026
registerclassex	-7.34234
app	-7.34467
modulefilenamew	-7.36679
tr	-7.36819
fmode	-7.37237
vec	-7.3888
virtualfree	-7.39723
messageboxa	-7.40586
globalalloc	-7.40982
seterrormode	-7.41548
tcurrentthreadid	-7.42811
readp	-7.44181
getfilesize	-7.48302
getstartupinfow	-7.51269
lstrlen	-7.52528
setlasterror	-7.52616
getenv	-7.54476
showwindow	-7.54517
controlfp	-7.56871
commode	-7.57669
tmodulefilenamea	-7.59053
""	-7.59326
createwindowexa	-7.59623
createfilea	-7.62081
encodepointer	-7.6452
getmessagea	-7.64842
global	-7.64877
@@	-7.66519
window	-7.68452
tdll	-7.70802
▁vc	-7.72797
140.	-7.74333
▁gdi	-7.75742
update	-7.75778
interlocked	-7.77204
lock	-7.78431
malloc	-7.79548
loadlibraryexw	-7.82375
nal	-7.85688
ordi	-7.85723
gettemppathw	-7.88512
loadicon	-7.8875
s	-7.88766
shell	-7.90501
core	-7.90941
string	-7.92494
getsysteminfo	-7.94693
environ	-7.95355
gettemppath	-7.96312
getcurrentthread	-7.98888
flsgetvalue	-7.99242
int	-8.00178
createdirectorya	-8.01904
uilanguage	-8.03454
0._	-8.05436
register	-8.05529
getuserdefault	-8.08028
mode	-8.097
createevent	-8.10173
lstrcmp	-8.10521
71.__	-8.10948
71._	-8.11401
z	-8.14059
getclassinfoa	-8.15212
realloc	-8.15262
memset	-8.15287
ord	-8.1563
inal	-8.15794
exit	-8.18956
ou	-8.19604
setfilepointer	-8.21549
local	-8.21951
d	-8.22685
tputdebugstringa	-8.24523
getthreadpr	-8.25243
ef	-8.25335
currentprocess	-8.25397
erreduilanguages	-8.26147
searchpath	-8.27382
▁cr	-8.30187
env	-8.30428
getversionexw	-8.3071
▁qt	-8.31578
processdeppolicy	-8.31771
coinitialize	-8.32016
mentstringsw	-8.32961
tmodulefilenamew	-8.33429
dlldirectories	-8.33852
4	-8.34035
flssetvalue	-8.35675
compareexchange	-8.38095
flsalloc	-8.38377
_17	-8.38542
lstrcpyn	-8.39061
destroy	-8.39327
ctl	-8.39594
▁com	-8.3965
du	-8.43374
inet	-8.43826
endpa	-8.44006
o	-8.44103
setthreadlocale	-8.44215
lstrcpya	-8.44579
getkeyboardtype	-8.45121
ldr	-8.4532
ect	-8.47521
▁win	-8.47901
raiseexception	-8.48302
getsystemtime	-8.51024
address	-8.51978
___	-8.52659
re	-8.53432
ob	-8.5496
loadcursorw	-8.55669
▁u	-8.55912
▁ms	-8.56279
getwindow	-8.58438
cursorpos	-8.58444
ser	-8.60626
clipboardformata	-8.60877
shellexecute	-8.61084
inter	-8.61395
qae	-8.61768
deletefilea	-8.62763
▁n	-8.631
asfiletime	-8.63265
isvalid	-8.63385
getproc	-8.63771
registerclassa	-8.64095
getconsolewindow	-8.64959
0	-8.65316
sdirectorya	-8.65835
strcmp	-8.66315
1-1-0.__	-8.67089
getthreadlocale	-8.67205
enviro	-8.68748
couninitialize	-8.69367
paint	-8.70195
7.	-8.7079
nmentstringsw	-8.7182
etdefault	-8.72651
0.	-8.74232
decodepointer	-8.74512
ismbblead	-8.74512
lstrlena	-8.76219
lstrcpyna	-8.77252
memcpy	-8.7768
pi	-8.77817
lstrcata	-8.78962
winexec	-8.79374
regopenkeya	-8.8126
begin	-8.81892
movefilea	-8.83001
towlower	-8.83145
create	-8.8318
va	-8.84518
getsystemmetrics	-8.84636
locale	-8.85725
qstring	-8.86322
defwindowproca	-8.87683
xz	-8.8889
shlwapi	-8.88927
stdio	-8.90824
threaduilanguage	-8.90837
event	-8.95072
edu	-8.95102
hlp	-8.95574
init	-8.9585
plicat	-8.97498
ehandle	-8.97822
q	-8.97943
▁ip	-8.98482
getadaptersinfo	-8.98969
winmain	-9.02514
line	-9.03039
command	-9.03196
getvolume	-9.03261
argc	-9.04304
ole	-9.05184
query	-9.05753
crypt	-9.0744
regopenkeyexa	-9.08041
globalfree	-9.08327
setinformation	-9.0932
isp	-9.09925
freelibrary	-9.1014
onexit	-9.10327
comct	-9.10706
getcursorinfo	-9.115
system	-9.11897
erlockedexchange	-9.11998
internet	-9.13473
rocess	-9.13475
internetopen	-9.13682
createwindowex	-9.13895
pathfileexists	-9.15092
printf	-9.15659
i	-9.16257
7	-9.17389
getmodule	-9.17579
ex	-9.18805
2	-9.1885
variablew	-9.18964
row	-9.18982
nar	-9.19064
mapviewoffile	-9.19667
informationa	-9.20508
▁mfc	-9.20965
rand	-9.21311
tcurrentprocess	-9.21744
▁c	-9.22187
lockedincrement	-9.22838
localfree	-9.22887
texta	-9.23674
▁ucrtbase	-9.23805
1	-9.24458
dll	-9.24804
beginp	-9.25941
aint	-9.26682
getst	-9.27017
filemappinga	-9.28062
100._	-9.28074
bvm	-9.3069
draw	-9.30695
▁msv	-9.31113
virtual	-9.31244
std	-9.31324
read	-9.31729
getcurrent	-9.32267
exchange	-9.33007
getmessagew	-9.34376
ptr	-9.35298
rect	-9.37076
registercl	-9.3771
ipboardformata	-9.37819
ck	-9.39021
bitmap	-9.39904
globallo	-9.41429
delete	-9.41469
shgetfileinfo	-9.41481
32	-9.41924
rtdll	-9.42012
increment	-9.42413
▁nt	-9.43889
_1	-9.44227
lcmapstringex	-9.4444
charprev	-9.44711
getclient	-9.44998
strings	-9.4657
ock	-9.47498
cl	-9.48361
oseservicehandle	-9.49798
tcursorpos	-9.51179
commoncontrolsex	-9.51514
load	-9.5306
c	-9.53645
getproce	-9.54091
n	-9.54162
openservice	-9.5478
cmp	-9.55057
commandline	-9.55103
toarg	-9.55781
u	-9.56083
loadaccelerators	-9.56303
ps	-9.56958
stri	-9.58352
2.	-9.5917
messageboxw	-9.62001
vw	-9.66009
70.__	-9.69426
initial	-9.70448
thread	-9.70811
70._	-9.71284
close	-9.71491
lockedexchange	-9.72231
access	-9.72257
service	-9.73202
gdiplus	-9.73602
ate	-9.74831
directorya	-9.75041
valid	-9.75466
defaultlangid	-9.76121
start	-9.76676
default	-9.76845
aut	-9.76956
userdefaultlcid	-9.78312
g	-9.78565
@@@	-9.79743
module	-9.80009
getdc	-9.8038
information	-9.81127
releasedc	-9.82096
openscmanager	-9.84508
kso	-9.84949
cha	-9.85483
ngeserviceconfig	-9.85883
k	-9.86232
common	-9.86989
acmd	-9.8744
120._	-9.88035
_100	-9.88669
out	-9.89313
handler	-9.89674
url	-9.89941
foregroundwindow	-9.90819
r	-9.9112
sprintfa	-9.9146
servicehandle	-9.92084
createmutexa	-9.92157
filetimeto	-9.92618
fileattributesa	-9.93074
t	-9.93101
3	-9.93197
getdesktopwindow	-9.93899
ironmentstrings	-9.93968
defaultlcid	-9.96488
icmp	-9.99697
for	-9.999
text	-10.0046
lstrcmpi	-10.0068
base	-10.0168
upd	-10.0226
setdlldirectory	-10.0279
▁libifcoremd	-10.0327
namew	-10.0485
gettime	-10.0524
createcompatible	-10.0526
qqrp	-10.0526
str	-10.0552
char	-10.0561
memmove	-10.0576
wcs	-10.0613
writep	-10.0622
17	-10.0661
▁rtl	-10.0717
140	-10.0723
application	-10.0824
size	-10.083
getmenu	-10.0857
tlibmodule	-10.0883
clipboardwindow	-10.0883
getopen	-10.0892
defwindowprocw	-10.0935
codepage	-10.0987
write	-10.0994
sendmessage	-10.1041
h	-10.1043
open	-10.1064
atewindow	-10.11
esswindowstation	-10.1144
getactivewindow	-10.1146
zoneinformation	-10.1148
bas	-10.1151
2@	-10.1179
b	-10.1196
variablea	-10.1211
_4	-10.1231
enamew	-10.1257
▁msvcp	-10.1263
messageextrainfo	-10.1299
yapax	-10.1425
rtl	-10.1452
abv	-10.1468
release	-10.1526
getinputdesktop	-10.1638
getinputstate	-10.1694
doubleclicktime	-10.1718
loadlibraryex	-10.174
aps	-10.1802
findresourcea	-10.1815
ctrldispatcher	-10.184
token	-10.1844
getcapture	-10.1865
getfocus	-10.1865
windowsdirectory	-10.1873
getshellwindow	-10.1922
except	-10.198
of	-10.2189
atexit	-10.2216
instance	-10.2286
featurepresent	-10.2329
traits	-10.2334
coinitializeex	-10.2344
getsystemdefault	-10.2346
argv	-10.235
qt	-10.2433
x	-10.2445
1@	-10.2461
systemdirectorya	-10.2495
getmessagetime	-10.2516
basic	-10.2526
getcursor	-10.257
directoryw	-10.2658
paletteentries	-10.2701
getlongpathnamea	-10.2701
systemtime	-10.2756
getmessagepos	-10.2763
func	-10.289
getkbcodepage	-10.289
110._	-10.2995
resource	-10.2998
select	-10.3018
loadlibraryw	-10.31
iob	-10.3137
from	-10.3363
se	-10.339
ln	-10.339
getcomputername	-10.3411
loadresource	-10.3412
processor	-10.3429
mt	-10.3494
che	-10.3535
clipboardviewer	-10.3543
sequencenumber	-10.3546
getclipboard	-10.3546
ckmarkdimensions	-10.373
▁pbvm	-10.3752
loadstringw	-10.376
lz	-10.4005
rt	-10.4012
registerclass	-10.4031
dc	-10.4045
version	-10.4045
charlowerbuffa	-10.4104
stringa	-10.4125
wargv	-10.4137
array	-10.4248
lstrcpy	-10.4269
pbd	-10.4476
pbdh	-10.4544
binarytostringw	-10.4559
openprocess	-10.4631
privateprofile	-10.4723
alloc	-10.4782
mb	-10.4897
cocreate	-10.5004
seq	-10.5012
srchr	-10.5069
lockeddecrement	-10.5091
in	-10.5136
getversionex	-10.5193
dialogbaseunits	-10.5208
_240	-10.5241
lockresource	-10.5244
clipboardowner	-10.5427
lstrcmpiw	-10.5433
sa	-10.5447
getde	-10.5474
vicec	-10.5478
strlen	-10.5539
caretblinktime	-10.5543
findclose	-10.5567
▁ws	-10.5734
id	-10.5756
0.@	-10.5852
next	-10.5897
vswprintf	-10.5909
allocate	-10.6051
removedirectory	-10.6057
menu	-10.6077
createprocess	-10.6109
wcsncpy	-10.6166
unlock	-10.6171
bit	-10.6214
@_	-10.6223
setcurrent	-10.6288
binarytostring	-10.6324
log	-10.6361
data	-10.657
▁a	-10.6693
27	-10.6874
lread	-10.6901
decrement	-10.708
function	-10.7088
path	-10.7265
regqueryvalue	-10.7283
langid	-10.7291
2_32.	-10.7309
end	-10.7329
@2@@	-10.7424
hi	-10.7435
sprintf	-10.7463
getc	-10.751
tuserdefaultlcid	-10.7543
sys	-10.7548
ocko	-10.7554
pand	-10.7565
tdefault	-10.7813
check	-10.7821
140._	-10.7848
ator	-10.793
ent	-10.7956
itcommoncontrols	-10.8046
initenv	-10.8096
120.__	-10.8103
sin	-10.8181
findfirstfile	-10.8189
helper	-10.8389
lis	-10.8431
asc	-10.8445
tfileattributesa	-10.8451
run	-10.8529
abvqstring	-10.855
shgetfolderpath	-10.8654
regclosekey	-10.8654
time	-10.8737
capau	-10.8768
findwindowa	-10.8768
statusex	-10.8782
wcsrchr	-10.8883
ow	-10.8899
dv	-10.8966
lclose	-10.9112
getprofileint	-10.9235
main	-10.9335
sysinfo	-10.9358
sw	-10.9415
100.	-10.9425
120.	-10.9455
cor	-10.9469
qaeaav	-10.9478
qbe	-10.9642
sapi	-10.9725
signal	-10.9726
once	-10.9733
startup	-10.9783
info	-10.9848
wind	-10.9901
ink	-10.9943
gettempfilename	-10.9973
createpalette	-10.9981
muldiv	-11.0111
un	-11.0231
timer	-11.0352
0@	-11.0411
no	-11.0415
xp	-11.0444
ather	-11.0521
mit	-11.0687
co	-11.0704
tok	-11.0835
eek	-11.0906
▁ap	-11.1009
memorystatus	-11.101
bl	-11.1083
copyfile	-11.1218
filenamea	-11.1245
110.__	-11.1306
servi	-11.144
tdoubleclicktime	-11.1449
sh	-11.1476
localfiletime	-11.1508
terminateprocess	-11.1512
setconditionmask	-11.1528
cectrldispatcher	-11.1575
it	-11.1588
charlower	-11.1622
unmapviewoffile	-11.1666
_2	-11.1734
first	-11.1817
os	-11.182
getsyscolor	-11.1973
dispatchmessage	-11.1974
pro	-11.2112
invalid	-11.2139
m	-11.2143
new	-11.2156
yap	-11.2205
ure	-11.226
at	-11.2271
utility	-11.2294
isw	-11.2421
calloc	-11.2445
and	-11.2489
mem	-11.2552
mm	-11.2594
rn	-11.2641
tl	-11.2652
windowmessage	-11.2809
eh	-11.2855
lls	-11.2879
filenamew	-11.2939
parameter	-11.2961
killtimer	-11.2966
f	-11.2989
reggetvalue	-11.3141
_137	-11.3141
stream	-11.3149
util	-11.3172
y	-11.3232
tclipboardviewer	-11.3286
profile	-11.3322
dir	-11.3359
ya	-11.3398
fileattributes	-11.3435
waitfor	-11.3502
variant	-11.3502
cc	-11.3518
wcsnc	-11.354
ii	-11.356
openmutex	-11.3693
olumeinformation	-11.3827
tool	-11.3889
lse	-11.392
110.	-11.4021
rmationbyhandle	-11.4068
getfileinfo	-11.4069
setcursor	-11.407
buffer	-11.4078
zp	-11.4124
tputdebugstringw	-11.4163
▁k	-11.4203
imetodosdatetime	-11.4455
filet	-11.4461
bind	-11.4466
freeresource	-11.4504
@2@	-11.4552
etcurrentprocess	-11.4629
trace	-11.4641
shutdown	-11.4724
exa	-11.4774
byte	-11.4842
getlocaltime	-11.4876
aahpapad	-11.4877
return	-11.4881
uae	-11.4897
splk	-11.491
openfile	-11.4917
markdimensions	-11.4942
tdialogbaseunits	-11.4963
userm	-11.4998
convert	-11.5089
cocreateguid	-11.5089
tclipboardowner	-11.5145
kernel	-11.516
widgets	-11.5173
to	-11.5245
lt	-11.5258
tcaretblinktime	-11.5261
snprintf	-11.5283
file	-11.5432
nd	-11.5476
createsemaphorea	-11.5529
enable	-11.5529
xm	-11.5539
en	-11.5545
createfont	-11.5756
platform	-11.5756
zwquery	-11.5756
ation	-11.5787
rchr	-11.5792
sdebuggerpresent	-11.5839
getuser	-11.5861
guid	-11.5909
textlengtha	-11.5934
single	-11.5989
actctx	-11.5989
getatomname	-11.5989
indirect	-11.5989
qqrv	-11.5989
pavq	-11.599
fputws	-11.5996
getm	-11.6023
getv	-11.6048
cr	-11.607
11	-11.614
fputw	-11.6219
dialogb	-11.6274
trac	-11.6282
help	-11.6318
remo	-11.6416
addatoma	-11.6467
regsetvalueex	-11.6471
71	-11.6479
settings	-11.648
vironmentstrings	-11.6527
getclass	-11.653
sho	-11.6544
exp	-11.6625
execute	-11.6718
debug	-11.672
oxindirectparamw	-11.677
sapav	-11.6798
avq	-11.6798
eguid	-11.6809
ek	-11.6923
wcscat	-11.6977
oleuninitialize	-11.6977
opensemaphore	-11.6977
reset	-11.7024
urrentthreadid	-11.7046
attribute	-11.7062
len	-11.7092
sid	-11.7126
commoncontrols	-11.717
isdbcsleadbyteex	-11.7241
edebuggerpresent	-11.7242
etcursorpos	-11.7272
20.	-11.7324
modulehandleexw	-11.733
cla	-11.7394
wsastartup	-11.751
avqstring	-11.7513
di	-11.7519
versioninfosize	-11.7558
getfile	-11.7572
.___	-11.7601
wu	-11.7658
ad	-11.769
translator	-11.7796
getconsole	-11.7824
borm	-11.7863
getdev	-11.7964
findresource	-11.8035
strncmp	-11.8074
errorexit	-11.8075
fopen	-11.8077
rh	-11.8261
kkkk	-11.8368
vfprintf	-11.8368
gets	-11.8415
ut	-11.844
31	-11.8558
memory	-11.8655
corlib	-11.8671
putenv	-11.8671
12	-11.8734
device	-11.8765
count	-11.8877
4.	-11.8933
flush	-11.8983
diagnostic	-11.8984
▁python	-11.8984
py	-11.9028
findfirstfilew	-11.9051
oregisterpsclsid	-11.9066
dup	-11.9073
lun	-11.9121
im	-11.9152
regcreatekey	-11.9197
140_	-11.921
ystemdefaultlcid	-11.9217
01@	-11.9222
name	-11.9279
memorystatusex	-11.9308
openfilemappinga	-11.9311
registercli	-11.935
wwin	-11.94
nxz	-11.9407
1-1-1.	-11.9639
findnextfile	-11.9639
xxthrowexception	-11.9639
yaxpax	-11.9639
windowpos	-11.9649
32._	-11.9903
strcpy	-11.9963
ifi	-11.9982
100.@	-12.0017
tmenu	-12.0051
list	-12.015
ectinformation	-12.0166
odulefilenamea	-12.0173
xxz	-12.0249
ing	-12.0299
item	-12.0325
buf	-12.0343
exe	-12.0346
openthread	-12.0346
1@@	-12.0445
mpi	-12.0457
nwind	-12.0515
vcl	-12.0611
find	-12.0711
createsolidbrush	-12.0712
verifyv	-12.0712
activate	-12.0713
scr	-12.0724
append	-12.0741
setwindow	-12.0762
1.__	-12.0781
formatmessage	-12.0828
library	-12.0886
sax	-12.0901
kc	-12.0943
@1@@	-12.0964
fileattributesex	-12.1089
crashreporter	-12.1096
fromstd	-12.1101
namea	-12.114
3@	-12.1237
de	-12.1238
nt	-12.1276
ersioninfo	-12.1317
1-2-	-12.1371
pboardformata	-12.1421
logging	-12.1496
rtlinit	-12.1499
strstr	-12.1501
que	-12.1512
ios	-12.1777
icec	-12.1804
120	-12.184
setlocale	-12.1865
createeventw	-12.1898
detail	-12.1913
sub	-12.1917
srtl	-12.1933
image	-12.194
hread	-12.1941
dress	-12.1963
140.__	-12.199
.@	-12.201
sna	-12.2033
urrentdirectorya	-12.2069
12@	-12.2095
getcur	-12.2106
setconsole	-12.2163
ateheap	-12.2179
inser	-12.222
tag	-12.2222
atin	-12.223
ue	-12.229
strcat	-12.2325
lstrcat	-12.2329
datoma	-12.2345
andinitializesid	-12.2348
atoi	-12.2353
fin	-12.2378
logger	-12.2388
createfile	-12.239
vsnprintf	-12.2397
utf	-12.2537
▁fa	-12.2547
mappinga	-12.2682
70.	-12.2683
dlgitem	-12.2774
private	-12.282
curitydescriptor	-12.2821
ll	-12.2823
inputi	-12.288
filen	-12.2933
tfileattributes	-12.296
▁p	-12.3026
42	-12.3222
color	-12.3234
ority	-12.3258
arguments	-12.3278
messageb	-12.3279
flags	-12.3283
filesystem	-12.3283
ur	-12.3308
ca	-12.3308
urrentprocessid	-12.3324
@1@	-12.3335
eatedialogparama	-12.3362
eep	-12.3383
▁lib	-12.3399
bts	-12.3469
@0	-12.3474
mbs	-12.3542
xc	-12.3548
rs	-12.358
saxabv	-12.3606
rocessor	-12.3611
la	-12.3635
tfilter	-12.3652
ime	-12.3726
createmutex	-12.374
trigger	-12.3779
gdipcreate	-12.3779
essaffinitymask	-12.3779
shared	-12.3779
40.__	-12.3813
rec	-12.3826
createdc	-12.3912
removeextension	-12.4101
patha	-12.4128
getclassname	-12.4191
ta	-12.4198
fileversioninfo	-12.4268
swprintf	-12.4288
isdbcsleadbyte	-12.4303
telemetry	-12.4305
acquirecontext	-12.4305
situ	-12.4305
atoma	-12.4307
getfullpathname	-12.4308
deletedc	-12.4311
vers	-12.4313
270	-12.436
handle	-12.4411
sg	-12.4557
expa	-12.4576
xe	-12.4649
xitprocess	-12.4741
ptrs	-12.4804
▁olea	-12.4827
filetime	-12.4842
exception	-12.486
loadimagea	-12.486
gui	-12.486
strstria	-12.4861
yaxxz	-12.4861
fileapis	-12.4861
charupperbuff	-12.4861
enumprocess	-12.4863
copy	-12.4906
block	-12.4936
allocstringlen	-12.4998
sf	-12.5009
internal	-12.5039
tof	-12.5047
messagea	-12.5148
ah	-12.5159
debuggerpresent	-12.5229
or	-12.5267
hash	-12.5314
10	-12.5347
etconditionmask	-12.5385
format	-12.5436
pool	-12.545
nsolectrlhandler	-12.5454
ygx	-12.5459
qtext	-12.5461
dle	-12.5494
witch	-12.5511
pathfi	-12.5536
getspecialfolder	-12.5585
setco	-12.5618
em	-12.5666
mentvariablew	-12.5749
▁vcl	-12.5774
profilestringa	-12.5843
iconw	-12.5865
lib	-12.5878
li	-12.5933
ilemappinga	-12.5964
createf	-12.5968
putdebugstringa	-12.6027
compare	-12.6073
scard	-12.6074
cygwin	-12.6074
rtlmovememory	-12.6074
dialogboxparam	-12.6074
getlarge	-12.6074
scardforget	-12.6074
unicodestring	-12.6074
processevents	-12.6077
codec	-12.6079
map	-12.6094
loadmenua	-12.6095
@@00	-12.6117
threadid	-12.6117
mentstrings	-12.615
key	-12.6165
param	-12.6202
@@@@@	-12.6237
dsl	-12.6253
etmessage	-12.6298
ntquery	-12.632
output	-12.6408
cob	-12.6478
fx	-12.654
iae	-12.6614
etenvironment	-12.6625
setstdhandle	-12.6657
call	-12.6672
mutex	-12.6737
spincount	-12.674
engine	-12.674
timebeginperiod	-12.674
wcscpy	-12.674
ansi	-12.6741
usttoken	-12.6741
lay	-12.6747
ia	-12.676
tconsolewindow	-12.6764
connect	-12.6768
40.@	-12.6783
_42	-12.6806
scom	-12.6809
print	-12.681
▁msc	-12.6812
db	-12.6852
charlowera	-12.6927
13	-12.7024
fre	-12.704
createdirectory	-12.717
geten	-12.7282
sysallocstring	-12.7321
ppath	-12.7395
dd	-12.7426
cxxframehandler	-12.7455
privilege	-12.7455
qmessagelog	-12.7455
support	-12.7455
createpen	-12.7456
perf	-12.7459
ddf	-12.747
state	-12.7491
pointer	-12.7523
tmodulehandleexw	-12.761
regcreatekeyex	-12.7706
odulefilenamew	-12.7815
solectrlhandler	-12.7846
setcon	-12.7853
indowsdirectorya	-12.7896
nter	-12.7915
with	-12.7947
01	-12.8016
empt	-12.8094
windows	-12.8096
@4	-12.8109
een	-12.8147
sfm	-12.8168
debugstringa	-12.8185
getpr	-12.8217
qaex	-12.822
hea	-12.8223
getlast	-12.8225
memalloc	-12.8233
netapi	-12.8241
ab	-12.8309
popup	-12.8334
cmd	-12.8336
pa	-12.8407
osf	-12.8492
removefilespecw	-12.8513
handl	-12.852
fi	-12.8551
ver	-12.8554
0_	-12.864
add	-12.8864
ed	-12.8879
qfile	-12.888
quenc	-12.8939
tprocessdpiaware	-12.9001
ntsetinformation	-12.9031
deletefile	-12.9038
setthread	-12.904
socket	-12.9043
error	-12.9057
invoke	-12.9057
peekmessagea	-12.9057
rtlzeromemory	-12.9057
duilib	-12.9057
rtlfreeheap	-12.9057
strchr	-12.9058
connection	-12.9058
corona	-12.906
qlibrary	-12.9061
option	-12.9062
trldispatcher	-12.9066
apaxi	-12.9076
psetinformation	-12.9084
servicec	-12.9116
npbd	-12.9117
ap	-12.9141
ct	-12.9146
value	-12.9231
reg	-12.9281
40._	-12.9344
video	-12.946
ma	-12.9494
ini	-12.9499
▁f	-12.9538
ivateprofileint	-12.9607
plc	-12.9607
priority	-12.9608
tevent	-12.9676
@0@	-12.9732
io	-12.9776
-1.	-12.9874
nmentvariablew	-12.99
deppolicy	-12.9912
class	-12.9913
flag	-12.9932
▁libc	-12.9936
cy	-12.9944
pathappend	-12.9967
location	-12.9969
hook	-12.9973
status	-12.9981
abvq	-13.0042
getp	-13.011
nmentstrings	-13.0128
send	-13.0132
cobol	-13.0178
lalloc	-13.0179
oc	-13.0186
keya	-13.0191
gdi	-13.0202
getpro	-13.0207
removedirectoryw	-13.022
regist	-13.0242
aaa	-13.0316
ttoken	-13.0332
gdip	-13.0369
initializese	-13.0391
nabv	-13.0402
processid	-13.0445
classicprovider	-13.0463
he	-13.0491
ch	-13.0499
rese	-13.0565
kcore	-13.057
cb	-13.0637
exw	-13.0711
rea	-13.0716
wpa	-13.0813
pax	-13.0825
pb	-13.0833
cid	-13.0843
eadprocessmemory	-13.0894
putchar	-13.0915
tout	-13.092
manager	-13.0966
getparent	-13.0966
0400._	-13.0966
disable	-13.0966
connected	-13.0967
protect	-13.0967
debugger	-13.0967
qaexh	-13.0968
ght	-13.0968
driver	-13.0969
native	-13.0969
tbapi	-13.0973
parametersinfo	-13.0973
bytelen	-13.0976
stringw	-13.0998
▁m	-13.1045
te	-13.1133
cessaffinitymask	-13.1198
rentthreadid	-13.1213
utils	-13.1319
tprivateprofile	-13.137
getmodulehandle	-13.1446
ctrlhandler	-13.1477
sol	-13.1551
top	-13.1598
qaeh	-13.1609
palloc	-13.1641
client	-13.1669
nap	-13.1835
on	-13.1836
fm	-13.1913
regopenkey	-13.1931
ine	-13.1968
arg	-13.2021
nh	-13.2029
loadmenu	-13.2052
getdesktop	-13.2073
vsnwprintf	-13.2077
loadimagew	-13.2077
setorganization	-13.2077
upprivilegevalue	-13.2077
finalize	-13.2077
metafile	-13.2078
random	-13.2078
errno	-13.2079
baselib	-13.208
▁log	-13.208
pathnamew	-13.2082
▁sdl	-13.2084
getwindowtext	-13.2086
getclassnamea	-13.2103
regs	-13.2112
rivateprofileint	-13.212
mp	-13.2143
processdpiaware	-13.2154
datetime	-13.218
230.	-13.2182
mo	-13.2211
40	-13.2259
unca	-13.2264
uq	-13.2292
ook	-13.2344
getsystemd	-13.235
21	-13.2354
iswindow	-13.2455
vq	-13.2493
uwp	-13.2501
sput	-13.2536
reatefilemapping	-13.2546
sk	-13.2609
al	-13.2629
▁util	-13.2675
ion	-13.268
2@@	-13.2683
loop	-13.2684
modulefilename	-13.2745
apsetinformation	-13.2769
ntquerysystem	-13.2867
ddress	-13.2906
messagew	-13.2923
1._	-13.2943
security	-13.2954
1.	-13.3179
pr	-13.3212
threadlocale	-13.3243
getthread	-13.3252
kci	-13.326
console	-13.3269
config	-13.3285
▁common	-13.3313
mseutil	-13.3323
charupper	-13.3327
vfwprintf	-13.3327
splitpath	-13.3327
▁borl	-13.3327
codecfor	-13.3328
fpu	-13.3328
comparestringa	-13.3328
saxxz	-13.333
saaav	-13.3333
wvsprintfa	-13.3334
hw	-13.3347
getkeyboard	-13.3356
tostd	-13.337
rivateprofile	-13.3417
clr	-13.3429
37	-13.3524
yah	-13.3526
ty	-13.3558
setapplication	-13.3563
level	-13.3579
vsprintf	-13.3679
message	-13.3687
ardtype	-13.369
activ	-13.372
vo	-13.3756
qme	-13.3849
iority	-13.389
@01@	-13.3903
220	-13.3915
324	-13.401
tx	-13.4123
@@0	-13.4182
are	-13.4265
getclassinfoex	-13.4338
etfileattributes	-13.443
port	-13.4435
ite	-13.4474
getlocaleinfo	-13.4516
epopup	-13.4548
tfileversioninfo	-13.4602
pav	-13.462
0.__	-13.4628
sdl	-13.463
vc	-13.4642
share	-13.4755
cleanup	-13.4756
crtsetcheckcount	-13.4756
executionstate	-13.4756
emcp	-13.4756
context	-13.4756
store	-13.4757
qlist	-13.4758
23.	-13.4759
_20	-13.4786
encode	-13.4795
formatmessagea	-13.4796
wcsn	-13.4843
efaultuilanguage	-13.4846
▁cb	-13.4848
systemdeppolicy	-13.4861
apau	-13.491
nextw	-13.4948
qbeh	-13.5081
shget	-13.5131
variable	-13.5165
hxz	-13.5169
dialogparama	-13.5218
fp	-13.5222
pbv	-13.5231
nstruct	-13.5261
fa	-13.5309
lue	-13.5501
itb	-13.5552
es	-13.5725
ran	-13.5751
urrentprocess	-13.5752
bad	-13.5901
_31	-13.595
qb	-13.5963
padh	-13.5972
ry	-13.6033
reduilanguages	-13.604
apa	-13.6055
ekeya	-13.6077
41	-13.6079
rentdirectorya	-13.6223
yai	-13.6246
us	-13.6301
pau	-13.6323
lu	-13.6326
todosdatetime	-13.6341
keyboard	-13.6375
encod	-13.6399
lineto	-13.6419
standard	-13.6422
install	-13.6423
clearance	-13.6423
sidtostringsidw	-13.6423
variantclear	-13.6423
wcspbrk	-13.6423
windowshookex	-13.6423
descriptordacl	-13.6423
decode	-13.6423
directorylisting	-13.6423
sddenv	-13.6423
nnot	-13.6424
strdup	-13.6426
krpt	-13.6426
comm	-13.6426
bi	-13.6433
fsi	-13.6445
rtbase	-13.6447
acm	-13.6453
entexpo	-13.6462
group	-13.6462
isdi	-13.6526
pol	-13.6536
getkey	-13.654
pat	-13.6562
ic	-13.6571
2-1-0._	-13.6627
move	-13.6641
serm	-13.6653
code	-13.6676
eventsourcew	-13.6737
link	-13.6748
aexxz	-13.6759
et	-13.6777
winitenv	-13.6819
cal	-13.6824
ext	-13.6843
filter	-13.6847
_7	-13.6957
wi	-13.6966
wsa	-13.6983
ui	-13.6985
gdipluss	-13.6995
▁w	-13.6995
yapa	-13.7019
utions	-13.7035
tmessage	-13.7111
loader	-13.7158
soli	-13.7171
compress	-13.7256
140.@	-13.7289
setstat	-13.7363
efer	-13.7443
ha	-13.7485
ul	-13.7576
apt	-13.7614
hpb	-13.7628
nitializesrwlock	-13.7645
rentprocessid	-13.7721
active	-13.7864
anc	-13.789
xstr	-13.7939
rcobol	-13.7951
use	-13.8007
entry	-13.8116
sc	-13.822
qaexabv	-13.8323
shi	-13.8345
procaddress	-13.8391
notifyicon	-13.8398
igu	-13.8399
enum	-13.8414
foundation	-13.8423
mark	-13.8423
combine	-13.8423
provider	-13.8423
attach	-13.8423
locimp	-13.8423
webengine	-13.8423
recoverycallback	-13.8423
regdeletevaluea	-13.8423
setpythonhome	-13.8423
windowsghosting	-13.8423
hton	-13.8423
sync	-13.8423
setvbuf	-13.8423
external	-13.8423
boost	-13.8423
10.	-13.8424
getwindowlong	-13.8425
qmutex	-13.8427
qml	-13.8429
sdb	-13.8442
tbl	-13.8452
ahhpapad	-13.8462
cm	-13.8508
etclipboardowner	-13.8548
setpro	-13.8578
sta	-13.8622
tos	-13.8649
etcaretblinktime	-13.8676
do	-13.87
mens	-13.8701
cef	-13.8708
tow	-13.8714
aaav	-13.8752
si	-13.8756
yg	-13.8795
pdat	-13.8882
imm	-13.8985
atypes	-13.9003
fo	-13.9009
▁x	-13.9044
ar	-13.9091
_30	-13.912
tob	-13.9301
dlg	-13.9361
ernel	-13.9395
th	-13.9488
git	-13.9582
st	-13.9584
sn	-13.9591
if	-13.9839
post	-13.9889
ls	-13.9891
@@@1@	-13.9893
ursorpos	-13.9904
rep	-14.0017
solut	-14.0034
__@@	-14.0081
ysallocstringlen	-14.0134
tex	-14.0211
2_	-14.0319
etw	-14.0329
ac	-14.0348
getinstance	-14.0392
basica	-14.0454
sets	-14.0457
ds	-14.0516
▁fo	-14.0567
affinitymask	-14.0569
mtext	-14.063
onsolecursorinfo	-14.063
see	-14.0712
20	-14.074
imageh	-14.0751
structuredevent	-14.0778
bo	-14.0802
ode	-14.0821
movefile	-14.0858
dlldirectory	-14.0913
tooem	-14.0922
maxutil	-14.0923
control	-14.0923
delayload	-14.0923
getdrive	-14.0923
globalfromstream	-14.0923
grdprepare	-14.0923
mkdir	-14.0923
oemtochar	-14.0923
symbol	-14.0923
wcstombs	-14.0923
wpgmptr	-14.0923
errorreport	-14.0923
caret	-14.0923
frame	-14.0923
hiip	-14.0923
sleadbyte	-14.0923
chromium	-14.0923
cplus	-14.0924
dialog	-14.0924
▁pcic	-14.0925
exists	-14.0926
nsmc	-14.0929
datafrom	-14.0931
@@22	-14.0933
padhp	-14.0939
export	-14.0941
gettemp	-14.0947
sba	-14.0951
net	-14.0953
ticks	-14.0955
notifyiconw	-14.0956
adapter	-14.0957
npb	-14.096
cont	-14.0962
lower	-14.0974
eventlog	-14.0987
ity	-14.0996
virt	-14.1016
icona	-14.1017
mainwindow	-14.1037
cpy	-14.1048
ustructuredevent	-14.107
able	-14.108
readinfo	-14.1107
extra	-14.1112
20.__	-14.1123
dr	-14.1133
winhttp	-14.1144
abs	-14.1146
threadex	-14.1155
reate	-14.1165
iocreate	-14.1167
gu	-14.1199
ss	-14.1225
ina	-14.1229
extex	-14.1231
fr	-14.1283
cre	-14.1295
equenc	-14.1323
▁base	-14.1409
thr	-14.1417
emp	-14.143
qaepapa	-14.1466
pos	-14.1496
unexp	-14.1512
direct	-14.1523
prot	-14.154
getsys	-14.1618
vba	-14.171
setenv	-14.1717
34	-14.1725
bu	-14.174
crypto	-14.1935
arch	-14.1944
zz	-14.1957
123@	-14.1959
hremoveextension	-14.207
dp	-14.2158
bor	-14.226
▁q	-14.2281
pp	-14.2365
00.@	-14.238
setprocess	-14.2437
length	-14.2457
getstd	-14.2491
tartup	-14.261
esensitiv	-14.2654
allocat	-14.2664
pt	-14.2861
uninitialize	-14.2861
lo	-14.3084
rdv	-14.311
▁wins	-14.3114
tmodulefilename	-14.3453
tcommoncontrols	-14.3471
dialogbox	-14.351
indirectparamw	-14.3511
gl	-14.3527
getsystemde	-14.3628
up	-14.3633
trs	-14.3663
yahh	-14.3678
▁v	-14.3728
qaepa	-14.3733
getpath	-14.3753
stat	-14.376
tmessagea	-14.3774
point	-14.3877
setconsolet	-14.3884
ain	-14.3885
sal	-14.39
comp	-14.392
clar	-14.402
http	-14.4021
papax	-14.421
vcr	-14.4223
writ	-14.4237
1-1-	-14.4251
semaphore	-14.4256
number	-14.4256
enumprinters	-14.4256
equalsid	-14.4256
memchr	-14.4256
session	-14.4256
stringfromguid	-14.4256
strncpy	-14.4256
brush	-14.4256
high	-14.4256
crash	-14.4256
aexpav	-14.4256
▁cblrts	-14.4256
custom	-14.4256
currentdatetime	-14.4256
qaepadxz	-14.4256
yapavvcgestor	-14.4256
yahpau	-14.4256
yaxpbd	-14.4256
saxpau	-14.4257
pathnamea	-14.4258
qqml	-14.4258
fflush	-14.4262
resume	-14.4263
stack	-14.4269
rtfunction	-14.4281
tcpu	-14.4288
but	-14.4296
createdi	-14.4322
ool	-14.4326
globaladdatoma	-14.4328
filterex	-14.4333
mf	-14.434
har	-14.4355
▁wx	-14.4366
setthreadpr	-14.4367
asse	-14.4374
parameters	-14.439
qui	-14.4397
creat	-14.4462
ne	-14.4473
show	-14.4541
vector	-14.4554
iswindows	-14.4571
30	-14.4597
ection	-14.4602
ound	-14.4618
da	-14.4628
07	-14.4658
ram	-14.4684
paths	-14.4714
getsho	-14.4872
ce	-14.4907
bd	-14.4908
nex	-14.4913
umresourcenamesa	-14.5052
000	-14.5091
ke	-14.5179
as	-14.5192
qa	-14.535
resourcedata	-14.5374
raw	-14.5413
dl	-14.5417
nte	-14.5507
faultuilanguage	-14.5573
20._	-14.5631
xpbd	-14.5654
cata	-14.5825
rentprocess	-14.5889
con	-14.5921
tsystemdeppolicy	-14.6233
vi	-14.6313
ctrls	-14.6317
srwlock	-14.6405
dlibrary	-14.6411
ea	-14.6457
qbepb	-14.6469
qg	-14.6559
com	-14.6587
createe	-14.6808
applicationre	-14.6824
mod	-14.6836
ri	-14.6842
cp	-14.6907
tenvironment	-14.6921
ndle	-14.696
epath	-14.6979
eme	-14.7002
hremovefilespecw	-14.7188
dh	-14.7291
bc	-14.7296
lc	-14.7342
▁s	-14.7367
sd	-14.7398
papad	-14.7538
hutdown	-14.7633
proc	-14.766
00	-14.7747
70	-14.7819
pavqs	-14.7865
dui	-14.7882
change	-14.7968
saxpa	-14.8043
temdefaultlcid	-14.8095
dowsdirectorya	-14.8134
qv	-14.8136
input	-14.8233
an	-14.8259
one	-14.832
bt	-14.8382
dapi	-14.839
fc	-14.8555
so	-14.8558
systeminfo	-14.8599
filename	-14.8608
qdate	-14.8711
currentdirectory	-14.8843
ti	-14.8844
na	-14.8886
df	-14.8946
be	-14.8974
nk	-14.8984
dxz	-14.8994
mfc	-14.9019
infoa	-14.9055
view	-14.906
current	-14.9078
ts	-14.9093
nti	-14.9112
directory	-14.9118
widget	-14.9159
tatypes	-14.9163
qaexab	-14.9183
ask	-14.9199
charlowerbuff	-14.9205
descriptor	-14.9222
terminate	-14.9248
trait	-14.925
table	-14.925
unicode	-14.9252
icon	-14.9253
miktex	-14.9254
notify	-14.9254
trans	-14.9255
separator	-14.9256
hhh	-14.9256
gestor	-14.9256
lang	-14.9256
getclipbo	-14.9256
getlogical	-14.9256
bridge	-14.9256
crashrpt	-14.9256
essidtosessionid	-14.9256
evilnun	-14.9256
graphic	-14.9256
gvecpdll	-14.9256
interface	-14.9256
metric	-14.9256
network	-14.9256
oxindirectparama	-14.9256
qaexhpapad	-14.9256
querydosdevicea	-14.9256
severity	-14.9256
simplemessagebox	-14.9256
soffice	-14.9256
twbet	-14.9256
writeconsolew	-14.9256
display	-14.9256
getlogicaldrives	-14.9256
rtlcreateheap	-14.9256
script	-14.9256
wcschr	-14.9256
dxgi	-14.9256
printcpu	-14.9256
fantom	-14.9256
243	-14.9256
mimedata	-14.9256
messagehandler	-14.9257
work	-14.9257
flx	-14.9257
hpadh	-14.9257
cnls	-14.9257
mask	-14.9257
chartooem	-14.9258
findwindow	-14.9258
olum	-14.9258
yahpad	-14.9259
exist	-14.926
mpfile	-14.926
setfocus	-14.9261
qiss	-14.9261
_300	-14.9262
ahaav	-14.9263
hich	-14.9263
tratio	-14.9264
qaepau	-14.9264
queryvalue	-14.9267
regdelete	-14.9267
yaxv	-14.9268
poco	-14.9269
back	-14.927
▁libm	-14.9273
spec	-14.9273
offile	-14.9274
utfs	-14.9275
qaexpavqa	-14.9276
capav	-14.9277
bink	-14.9281
23@	-14.9285
qmap	-14.93
bina	-14.9306
tls	-14.9324
args	-14.9334
ws	-14.9337
@@@2@	-14.9347
buffa	-14.9348
iaexxz	-14.9356
nvar	-14.9358
lcid	-14.9359
abstract	-14.9376
aahpa	-14.9388
iii	-14.9405
hb	-14.9405
tflag	-14.9441
exec	-14.9445
configur	-14.9465
@12@	-14.9476
sapa	-14.9486
yaxpa	-14.9502
mbin	-14.9508
pbg	-14.9513
impl	-14.9534
gdipget	-14.9538
_127	-14.9553
fclose	-14.9569
wdf	-14.9578
tprocaddress	-14.9588
tolocal	-14.9594
@@0@	-14.9636
mptr	-14.9637
registerme	-14.9647
rot	-14.9666
vcomp	-14.9695
tostring	-14.9711
home	-14.9808
mu	-14.9821
rar	-14.9824
abu	-14.9852
dosdatetime	-14.9858
rrent	-14.9977
-1	-15.0003
▁vp	-15.0044
lient	-15.0122
ibut	-15.0136
ind	-15.0138
loadlibrary	-15.0148
etwindowlong	-15.0156
nf	-15.0221
sor	-15.0256
ible	-15.035
2-1.	-15.0433
mi	-15.0456
by	-15.0469
acc	-15.0474
axpb	-15.0518
sswindowstation	-15.0584
yax	-15.0589
ib	-15.0635
ment	-15.0739
uni	-15.0752
ide	-15.0758
emi	-15.0805
ondition	-15.081
sex	-15.0842
charnext	-15.0863
yapav	-15.0931
14	-15.1053
fil	-15.1163
▁client	-15.1182
nu	-15.1299
mbc	-15.1338
pathw	-15.137
esrwlock	-15.1386
ys	-15.1595
setc	-15.1597
lp	-15.1612
erwindowmessage	-15.1628
gb	-15.1662
tim	-15.1752
thfi	-15.1825
curs	-15.2051
ath	-15.2053
3@@	-15.2087
zw	-15.225
processw	-15.2347
mat	-15.2361
▁g	-15.2383
temdefaultlangid	-15.2403
xw	-15.2548
aunchsettingsset	-15.2553
diskfreespacea	-15.2677
nw	-15.2746
eapplication	-15.2888
qaei	-15.3042
disp	-15.3126
dis	-15.3168
remov	-15.323
ng	-15.3251
cap	-15.3341
cur	-15.3361
au	-15.341
ld	-15.3504
launchsettings	-15.3716
gex	-15.3741
stringt	-15.3756
ro	-15.381
rla	-15.4004
ose	-15.415
meta	-15.4257
ker	-15.4644
ets	-15.4846
@12	-15.4911
313	-15.5115
uil	-15.5189
rr	-15.5215
ppr	-15.5307
edirect	-15.5523
po	-15.5651
err	-15.567
etwindowtext	-15.5752
32100._	-15.5775
setapp	-15.5852
getprocess	-15.6046
condition	-15.6078
ter	-15.6146
setd	-15.6262
created	-15.6319
urrentdirectoryw	-15.6397
filea	-15.641
dw	-15.6442
numresourcenames	-15.6453
ol	-15.647
loadcursor	-15.6521
processmemory	-15.6576
wprintf	-15.676
vm	-15.6768
cept	-15.6805
hpa	-15.6951
ced	-15.7001
ivateprofile	-15.7031
papa	-15.7072
@01	-15.708
04	-15.7119
olde	-15.7177
ref	-15.7225
eentr	-15.7271
rg	-15.7282
registerresource	-15.7348
cryptge	-15.7376
me	-15.7412
etdlgitem	-15.7438
ell	-15.7479
chan	-15.752
dupl	-15.7541
012@	-15.7562
rypto	-15.7562
72	-15.7613
mname	-15.7706
services	-15.7758
ip	-15.8116
pplication	-15.8213
exi	-15.8298
ua	-15.8416
acp	-15.8446
reatec	-15.8669
240	-15.8709
op	-15.8739
pc	-15.876
yaha	-15.877
ction	-15.8808
ranslator	-15.8827
bstract	-15.8957
"	-15.9008
erator	-15.9012
ede	-15.9014
etinformation	-15.9034
ame	-15.9065
nicmp	-15.909
classname	-15.9101
100	-15.9149
source	-15.9169
execut	-15.9179
getlongpathname	-15.9182
qqr	-15.9193
etprivateprofile	-15.9196
wer	-15.9208
getfullpath	-15.9214
openfilemapping	-15.9214
fullpath	-15.9216
attributes	-15.922
thremovefilespec	-15.9229
consolecursor	-15.9238
curren	-15.9251
fsiserv	-15.9251
currentdate	-15.9256
policy	-15.9256
kkkkkk	-15.9256
language	-15.9256
entries	-15.9256
gbox	-15.9256
serverrun	-15.9256
getadapters	-15.9256
gestortcpserver	-15.9256
acquire	-15.9256
tcpserver	-15.9256
simple	-15.9256
cases	-15.9256
ories	-15.9256
vcgestor	-15.9257
translat	-15.9257
cfg	-15.9257
yhan	-15.9258
raise	-15.9258
desc	-15.9258
cpara	-15.9259
ofiles	-15.926
edexception	-15.9261
compat	-15.9262
todo	-15.9263
qaexpav	-15.9264
achco	-15.9265
lpap	-15.9271
ffe	-15.9272
hpax	-15.928
paramet	-15.9281
def	-15.9288
hhpa	-15.9297
alida	-15.9302
mppath	-15.9311
speci	-15.9314
nel	-15.932
yaxa	-15.9323
topwindow	-15.9339
plic	-15.9345
400	-15.9346
orfrom	-15.9347
han	-15.9364
110	-15.9375
wstat	-15.9427
rylist	-15.9428
utilit	-15.943
▁"	-15.9469
she	-15.9472
rclass	-15.9521
wsas	-15.9531
nhttp	-15.9532
setcode	-15.9534
orityc	-15.954
tdo	-15.9548
ount	-15.9574
qaeaa	-15.9583
getvalue	-15.9602
bug	-15.9623
wvsprintf	-15.9645
inmain	-15.9667
viewer	-15.9669
ope	-15.9683
axpau	-15.9685
pu	-15.9697
ress	-15.9716
cons	-15.974
utputdebugstring	-15.9815
ast	-15.9824
addr	-15.9824
ings	-15.9849
initlog	-15.9871
fprintf	-15.9892
topen	-15.9902
aav	-15.9947
nit	-15.9969
xpav	-15.9979
sorpos	-16.0011
trings	-16.0012
cessdeppolicy	-16.0083
cod	-16.0107
ist	-16.0176
wx	-16.0292
bb	-16.0302
ahpa	-16.0311
ora	-16.0371
onapp	-16.0513
-2.	-16.0611
qaeha	-16.0636
tom	-16.0675
msvcrt	-16.0717
cursorinfo	-16.0729
sy	-16.0739
ironmentvariable	-16.075
queryinfo	-16.0784
om	-16.0867
proca	-16.0902
mas	-16.0916
utes	-16.0984
ho	-16.1086
ingw	-16.114
pinfo	-16.1247
tdata	-16.1282
formata	-16.1302
tp	-16.1437
ware	-16.1462
getcomp	-16.1517
dec	-16.1573
yahhpa	-16.1742
stdhandle	-16.1763
cs	-16.1791
ies	-16.1799
setlog	-16.1839
dos	-16.2006
efaultlcid	-16.2037
stric	-16.2049
thm	-16.206
axv	-16.208
saxp	-16.2095
ok	-16.2101
essageextrainfo	-16.2206
sr	-16.2223
ard	-16.2233
tw	-16.235
pd	-16.2439
ryinfo	-16.2536
@@2@	-16.2564
eppolicy	-16.2577
tdlgitem	-16.2711
rsion	-16.2863
nc	-16.3008
_10	-16.3125
ot	-16.3316
lat	-16.3318
ato	-16.3334
ivew	-16.3377
fileinfo	-16.3466
eserv	-16.3498
texa	-16.3616
last	-16.3672
cat	-16.3683
thash	-16.3712
ra	-16.372
gs	-16.3783
processde	-16.3834
porto	-16.3969
getclassinfo	-16.3971
lipboardviewer	-16.4009
vb	-16.4243
dpa	-16.4277
nv	-16.4449
heaps	-16.4449
▁to	-16.4511
pho	-16.4564
tcolor	-16.4751
setpr	-16.4794
ther	-16.4904
owe	-16.4909
ocessdeppolicy	-16.4967
ga	-16.5113
tsecurity	-16.5136
▁too	-16.547
cto	-16.552
@@1	-16.5549
apc	-16.562
_12	-16.5823
adprocessmemory	-16.587
ec	-16.6241
1-2	-16.6293
acce	-16.64
etmenu	-16.6447
las	-16.6471
gtype	-16.6606
cad	-16.6695
art	-16.6804
eth	-16.6813
rocessdeppolicy	-16.6887
fromp	-16.6895
cw	-16.6927
var	-16.6977
indowtextlengtha	-16.705
tin	-16.707
_13	-16.712
eha	-16.7128
fromw	-16.7355
210	-16.7389
tri	-16.7508
uta	-16.7602
arn	-16.7811
lipboardowner	-16.8245
ids	-16.8303
etmodulefilename	-16.8406
aretblinktime	-16.8502
ersion	-16.8646
vsw	-16.9109
ema	-16.9336
dic	-16.9447
obalmemorystatus	-16.9515
putdebugstringw	-16.9541
eatefilemapping	-16.9559
ba	-16.9627
qu	-17.0026
einfo	-17.0238
sion	-17.0404
sensitiv	-17.0404
bli	-17.0478
infow	-17.0505
setprocessd	-17.0559
gisterclass	-17.056
page	-17.0695
tthread	-17.0748
zd	-17.0756
als	-17.0857
aw	-17.1166
tu	-17.123
ted	-17.1412
setcur	-17.177
sse	-17.203
1-	-17.2249
earchpath	-17.2307
setp	-17.2341
regi	-17.2398
geto	-17.2752
res	-17.2828
tlength	-17.3041
eventlo	-17.3049
